410a49c3	3e3aea70	c0b80cde	408ba0d6	3f04f025	4131adc9	c02f1af8	409b7292	be728886	
c0546cfe	bfacc2fe	beeb2f8c	3f15166b	c00027c6	c06a5323	c00f5e81	bea2270c	40022f9b	
bec457f4	bebcd3cb	beaa9668	be988950	beae2d16	bebec79d	bebaaada	be5c933b	be7c1c58	
bfc74584	bfc364b5	bf0c2868	be624c79	bead1a9e	bfb885d9	bf57ecee	bddf8604	bd28c20e	
bf51f41e	bf1f385b	c005f907	c068d72e	beabfe23	bf93fda9	bf9e1a1b	bfe1c174	c024cf5a	
c00ce5ee	bfce5fd5	bf9334f8	3e258f12	bfbc4aea	bf7f447f	c00a11d0	bdd937f9	3f0f0a08	
c05d366a	bf7b5582	3e165676	bf4c4113	bf9acee1	c0802560	bf105701	bfe3116b	3f6bdcd7	
bebf2b1d	bead9fcc	be96461f	be96aad6	be9c3a19	bebbc9fd	bea044c4	be86fcd6	be5e4030	
bfb3e5bc	bf97de76	bed4f12d	beb8a875	be8f714e	bfac59fe	bf19cf79	beaae2c7	be16c84c	
bf9faedf	bf1fe568	bf8c379e	c029fbed	be84cb3f	bfc2519d	beef3434	bfeff61a	bff26530	
c01345f4	bfbc8be9	bf4c48fd	beeb64fc	bf95e154	bfc1e363	bfb1f9d4	bf29c412	3e0f37d6	
beda48f2	bef46b59	bef9bf5f	bf06e807	bf1ac249	beda5cf5	bf03742b	beca663d	bf011cf1	
c0b8662d	c0eddd7d	3ece3eb2	400ec533	3efb9eb7	c09078f5	3f81c5fe	409bcbed	bfe40ac2	
3fd5522b	3f436b90	bf8d1b9d	c04bbbe4	3f47a537	3faca6ef	3ef5cb08	bf8e0fed	c057a1e2	
bf602578	3c1ab1e0	c053fc8b	3fb1ee1c	c0916a62	4069a764	c0832c70	bfe98632	3e255864	
3ecdc278	3eb1c27b	3f47947a	3f511375	3f51292b	3e970b7a	3f483700	3f35a148	3f1ea962	
3f0f8f5c	3f0f414a	3e83ef1e	3d012a0a	3f162a2e	3f0e03b6	3f1924e3	3e6dc06f	bdb37813	
3f6b37f9	3f49f5d3	3f756552	3fb6de10	3fc1d63d	3f493a89	3f3e95d6	3e9a837b	3f9ad856	
3fd21166	3fdad9d9	bcb64d47	bf5aa2b9	3ea2b7cf	3fb8c5bb	3f2fc87c	bf03376f	bf3bf2ed	
4038c63e	401ee641	c030bebb	bf2373a6	c017fad3	4089b20e	c0144be3	c08451f6	3e8d1ca4	
bfdac4b9	bfae69a1	3d729054	401d64cf	bfa1e244	bedf65aa	bfb36fab	3f8cf0e1	401819e4	
bfc37032    3fd72ba7    3fa1d85e    3fc3b4ef    40232873    3fc4bd0b    3fb016aa    3f92afa5    3f9f32e9    3fd9ba57    3faf1f7f    401500d4    40ca2724    3f8366e9    4037046f    c04b5934    bfd2c507    c0b1a4bb    bf8ad4ac    bf8fe696    be4a84c9