3f316873
bef43958
bebdf3b6
3e23d70a
bdb71759
bb6c95c0
3e89ba5e
3e8f5c29
3eab851f
bf0ed917
3ef8d4fe
be8dd2f2
3f25a1cb
3df9db23
be560419
beae147b
3ef8d4fe
3d01d7dc
3eaf9db2
be0c49ba
3a50aaa8
3e828f5c
3d7be76d
3eb5c28f
3e6f9db2
3e981062
be676c8b
bd5d2f1b
bf12b021
beb95810
bed0e560
be839581
3f0ac083
3f051eb8
3e841893
bde147ae
3be410b6
3eac8b44
3e3b645a
beed9168
bd60ded3
3ed374bc
3d45d639
3f33f7cf
bea76c8b
befced91
bf004189
3f07ae14
bee3d70a
be428f5c
be24dd2f
be147ae1
3e6d9168
bed78d50
be3e76c9
be87ae14
bd9b089a
3e6978d5
be90e560
bab39192
3d4ccccd
3f1b22d1
3f13b646
be960419
bebc6a7f
3e6c8b44
3e8fdf3b
3e74bc6a
be851eb8
bee872b0
3ea8f5c3
be8d4fdf
bfa3d70a
bf4ed917
3c257a78
bd3edfa4
be6d9168
3e90e560
3f0fdf3b
bf020c4a
3e322d0e
3f2c8b44
be1ba5e3
bea147ae
3ec51eb8
beddb22d
be083127
3eea7efa
3ed2f1aa
bd13dd98
beb851ec
bef5c28f
bdcc2f83
bc30f27c
bebf7cee
befef9db
3dbc9eed
3df9db23
be178d50
3e7ced91
bd05f06f
be48b439
3da12d77
3ed4fdf4
3e20c49c
bf1f7cee
bd577319
3e0b4396
be90624e
3ea9fbe7
bf26a7f0
3d3573eb
3e1fbe77
3eeb020c
3ea24dd3
bca161e5
3e4ed917
bfb851ec
3e560419
bfb1eb85
3d542c3d
bc378034
bf553f7d
be92f1aa
3ebd70a4
bfcb851f
be189375
be27ef9e
3f29ba5e
3d9ff2e5
bd9db22d
be656042
be91eb85
3f641893
3f73f7cf
be000000
3f09fbe7
bdbedfa4
bd086595
beae147b
3eb74bc7
3f38d4fe
3ddf3b64
3e158106
3eaa7efa
3eee978d
3efc6a7f
3dd2f1aa
3f672b02
3f8ccccd
3ec83127
bee6e979
be3a5e35
bebb645a
3f0a3d71
40400000
bf676c8b
3df5c28f
bf69fbe7
be70a3d7
3ee147ae
3e8ed917
bef0a3d7
3f116873
40ad1eb8
bed374bc
bea2d0e5
bf008312
be27ef9e
bd81a36e
bdd0e560
3c9a0275
3da92a30
3e73b646
3eec8b44
be4bc6a8
3ec28f5c
3ebc6a7f
3e0d4fdf
3e428f5c
bed0624e
beeb851f
3f0353f8
3e8ac083
3e989375
bf05a1cb
3f0872b0
bbda3c21
bea353f8
3ca9930c
bc9ba5e3
bec18937
bf2d0e56
4029999a
c0047ae1
3f4d0e56
bf0b020c
3f228f5c
c0547ae1
3efb645a
bfa3d70a
bf0d0e56
3e6e978d
bf056042
3f25a1cb
c05eb852
3fa00000
3ee9fbe7
3f83d70a
bebced91
c02b851f
bf083127
be96872b
bf851eb8
c0100000
bfa8f5c3
c03c28f6
3efc6a7f
3f428f5c
bdf9db23
bed1eb85
400851ec
3fe66666
3c102de0
3e4fdf3b
bded9168
be8f5c29
bda1ff2e
3ee4dd2f
bf9ae148
c09c28f6
bea872b0
3f0147ae
bf024dd3
3ea0c49c
be16872b
beed0e56
3fd33333
40166666
bf0c49ba
c048f5c3
bea45a1d
3ef0a3d7
